/*
 * Copyright (c) 2024 EdgeImpulse Inc.
 *
 * Generated by Edge Impulse and licensed under the applicable Edge Impulse
 * Terms of Service. Community and Professional Terms of Service
 * (https://docs.edgeimpulse.com/page/terms-of-service) or Enterprise Terms of
 * Service (https://docs.edgeimpulse.com/page/enterprise-terms-of-service),
 * according to your product plan subscription (the “License”).
 *
 * This software, documentation and other associated files (collectively referred
 * to as the “Software”) is a single SDK variation generated by the Edge Impulse
 * platform and requires an active paid Edge Impulse subscription to use this
 * Software for any purpose.
 *
 * You may NOT use this Software unless you have an active Edge Impulse subscription
 * that meets the eligibility requirements for the applicable License, subject to
 * your full and continued compliance with the terms and conditions of the License,
 * including without limitation any usage restrictions under the applicable License.
 *
 * If you do not have an active Edge Impulse product plan subscription, or if use
 * of this Software exceeds the usage limitations of your Edge Impulse product plan
 * subscription, you are not permitted to use this Software and must immediately
 * delete and erase all copies of this Software within your control or possession.
 * Edge Impulse reserves all rights and remedies available to enforce its rights.
 *
 * Unless required by applicable law or agreed to in writing, the Software is
 * distributed on an "AS IS" BASIS, WITHOUT WARRANTIES OR CONDITIONS OF ANY KIND,
 * either express or implied. See the License for the specific language governing
 * permissions, disclaimers and limitations under the License.
 */

#ifndef _EI_CLASSIFIER_TFLITE_LEARN_9_H_
#define _EI_CLASSIFIER_TFLITE_LEARN_9_H_

#define EI_CLASSIFIER_TFLITE_LEARN_9_ARENA_SIZE     3097
const size_t tflite_learn_9_arena_size = 3097;

#ifdef EI_CLASSIFIER_TFLITE_ARENA_SIZE
#if EI_CLASSIFIER_TFLITE_ARENA_SIZE < EI_CLASSIFIER_TFLITE_LEARN_9_ARENA_SIZE
#undef EI_CLASSIFIER_TFLITE_ARENA_SIZE
#define EI_CLASSIFIER_TFLITE_ARENA_SIZE EI_CLASSIFIER_TFLITE_LEARN_9_ARENA_SIZE
#endif // #if EI_CLASSIFIER_TFLITE_ARENA_SIZE < EI_CLASSIFIER_TFLITE_LEARN_9_ARENA_SIZE
#else
#define EI_CLASSIFIER_TFLITE_ARENA_SIZE EI_CLASSIFIER_TFLITE_LEARN_9_ARENA_SIZE
#endif // #ifdef EI_CLASSIFIER_TFLITE_ARENA_SIZE

#if defined __GNUC__
#define ALIGN(X) __attribute__((aligned(X)))
#elif defined _MSC_VER
#define ALIGN(X) __declspec(align(X))
#elif defined __TASKING__
#define ALIGN(X) __align(X)
#else
#define ALIGN(X)
#endif

ALIGN(16) const unsigned char tflite_learn_9[] = {
  0x1c, 0x00, 0x00, 0x00, 0x54, 0x46, 0x4c, 0x33, 0x14, 0x00, 0x20, 0x00,
  0x1c, 0x00, 0x18, 0x00, 0x14, 0x00, 0x10, 0x00, 0x0c, 0x00, 0x00, 0x00,
  0x08, 0x00, 0x04, 0x00, 0x14, 0x00, 0x00, 0x00, 0x1c, 0x00, 0x00, 0x00,
  0x8c, 0x00, 0x00, 0x00, 0xe4, 0x00, 0x00, 0x00, 0x4c, 0x12, 0x00, 0x00,
  0x5c, 0x12, 0x00, 0x00, 0xa0, 0x17, 0x00, 0x00, 0x03, 0x00, 0x00, 0x00,
  0x01, 0x00, 0x00, 0x00, 0x10, 0x00, 0x00, 0x00, 0x00, 0x00, 0x0a, 0x00,
  0x10, 0x00, 0x0c, 0x00, 0x08, 0x00, 0x04, 0x00, 0x0a, 0x00, 0x00, 0x00,
  0x0c, 0x00, 0x00, 0x00, 0x1c, 0x00, 0x00, 0x00, 0x3c, 0x00, 0x00, 0x00,
  0x0f, 0x00, 0x00, 0x00, 0x73, 0x65, 0x72, 0x76, 0x69, 0x6e, 0x67, 0x5f,
  0x64, 0x65, 0x66, 0x61, 0x75, 0x6c, 0x74, 0x00, 0x01, 0x00, 0x00, 0x00,
  0x04, 0x00, 0x00, 0x00, 0x9c, 0xff, 0xff, 0xff, 0x0a, 0x00, 0x00, 0x00,
  0x04, 0x00, 0x00, 0x00, 0x08, 0x00, 0x00, 0x00, 0x6f, 0x75, 0x74, 0x70,
  0x75, 0x74, 0x5f, 0x30, 0x00, 0x00, 0x00, 0x00, 0x01, 0x00, 0x00, 0x00,
  0x04, 0x00, 0x00, 0x00, 0x9a, 0xed, 0xff, 0xff, 0x04, 0x00, 0x00, 0x00,
  0x01, 0x00, 0x00, 0x00, 0x78, 0x00, 0x00, 0x00, 0x02, 0x00, 0x00, 0x00,
  0x34, 0x00, 0x00, 0x00, 0x04, 0x00, 0x00, 0x00, 0xdc, 0xff, 0xff, 0xff,
  0x0d, 0x00, 0x00, 0x00, 0x04, 0x00, 0x00, 0x00, 0x13, 0x00, 0x00, 0x00,
  0x43, 0x4f, 0x4e, 0x56, 0x45, 0x52, 0x53, 0x49, 0x4f, 0x4e, 0x5f, 0x4d,
  0x45, 0x54, 0x41, 0x44, 0x41, 0x54, 0x41, 0x00, 0x08, 0x00, 0x0c, 0x00,
  0x08, 0x00, 0x04, 0x00, 0x08, 0x00, 0x00, 0x00, 0x0c, 0x00, 0x00, 0x00,
  0x04, 0x00, 0x00, 0x00, 0x13, 0x00, 0x00, 0x00, 0x6d, 0x69, 0x6e, 0x5f,
  0x72, 0x75, 0x6e, 0x74, 0x69, 0x6d, 0x65, 0x5f, 0x76, 0x65, 0x72, 0x73,
  0x69, 0x6f, 0x6e, 0x00, 0x0e, 0x00, 0x00, 0x00, 0x64, 0x11, 0x00, 0x00,
  0x5c, 0x11, 0x00, 0x00, 0x24, 0x11, 0x00, 0x00, 0xc4, 0x10, 0x00, 0x00,
  0xa8, 0x10, 0x00, 0x00, 0x68, 0x04, 0x00, 0x00, 0x38, 0x01, 0x00, 0x00,
  0xb0, 0x00, 0x00, 0x00, 0xa8, 0x00, 0x00, 0x00, 0xa0, 0x00, 0x00, 0x00,
  0x98, 0x00, 0x00, 0x00, 0x90, 0x00, 0x00, 0x00, 0x70, 0x00, 0x00, 0x00,
  0x04, 0x00, 0x00, 0x00, 0x42, 0xee, 0xff, 0xff, 0x04, 0x00, 0x00, 0x00,
  0x5c, 0x00, 0x00, 0x00, 0x0c, 0x00, 0x00, 0x00, 0x08, 0x00, 0x0e, 0x00,
  0x08, 0x00, 0x04, 0x00, 0x08, 0x00, 0x00, 0x00, 0x14, 0x00, 0x00, 0x00,
  0x2c, 0x00, 0x00, 0x00, 0x00, 0x00, 0x0a, 0x00, 0x0c, 0x00, 0x08, 0x00,
  0x00, 0x00, 0x07, 0x00, 0x0a, 0x00, 0x00, 0x00, 0x00, 0x00, 0x00, 0x01,
  0x04, 0x00, 0x00, 0x00, 0x00, 0x00, 0x00, 0x00, 0x00, 0x00, 0x0a, 0x00,
  0x10, 0x00, 0x0c, 0x00, 0x08, 0x00, 0x04, 0x00, 0x0a, 0x00, 0x00, 0x00,
  0x03, 0x00, 0x00, 0x00, 0x02, 0x00, 0x00, 0x00, 0x04, 0x00, 0x00, 0x00,
  0x06, 0x00, 0x00, 0x00, 0x32, 0x2e, 0x31, 0x31, 0x2e, 0x31, 0x00, 0x00,
  0xaa, 0xee, 0xff, 0xff, 0x04, 0x00, 0x00, 0x00, 0x10, 0x00, 0x00, 0x00,
  0x31, 0x2e, 0x35, 0x2e, 0x30, 0x00, 0x00, 0x00, 0x00, 0x00, 0x00, 0x00,
  0x00, 0x00, 0x00, 0x00, 0x24, 0xea, 0xff, 0xff, 0x28, 0xea, 0xff, 0xff,
  0x2c, 0xea, 0xff, 0xff, 0x30, 0xea, 0xff, 0xff, 0xd6, 0xee, 0xff, 0xff,
  0x04, 0x00, 0x00, 0x00, 0x78, 0x00, 0x00, 0x00, 0xd2, 0x7a, 0xc7, 0x3e,
  0x77, 0xc7, 0xe8, 0xbd, 0xeb, 0x96, 0x39, 0x3f, 0x63, 0xd1, 0x0d, 0xbf,
  0x40, 0xc4, 0xf1, 0xbc, 0x1c, 0x55, 0x02, 0x3f, 0xc9, 0x7a, 0xe7, 0x3e,
  0xf3, 0xee, 0x0c, 0xbf, 0xf0, 0x6f, 0x48, 0xbf, 0x3c, 0xe4, 0x05, 0x3f,
  0x7e, 0x88, 0xbb, 0x3e, 0xba, 0x9f, 0x13, 0x3f, 0x82, 0xb8, 0xb4, 0xbe,
  0x4b, 0x5a, 0x1e, 0xbf, 0x2e, 0x9d, 0x6f, 0xbf, 0x43, 0xee, 0x33, 0xbe,
  0x85, 0x56, 0x2c, 0x3e, 0xd1, 0x2e, 0x24, 0xbf, 0x80, 0x62, 0x63, 0xbd,
  0x56, 0x9d, 0x19, 0xbe, 0x4a, 0x2d, 0x11, 0xbf, 0x48, 0x75, 0x7e, 0xbe,
  0x89, 0x23, 0x2d, 0x3f, 0x82, 0x1b, 0x19, 0x3e, 0xa2, 0x29, 0xef, 0xbe,
  0x96, 0x5c, 0x0a, 0xbf, 0x21, 0x48, 0x06, 0xbf, 0xba, 0x5e, 0x5b, 0xbe,
  0xfd, 0x0b, 0x4e, 0x3f, 0x67, 0x7c, 0x21, 0x3e, 0x5a, 0xef, 0xff, 0xff,
  0x04, 0x00, 0x00, 0x00, 0x20, 0x03, 0x00, 0x00, 0xdd, 0x42, 0x49, 0x3e,
  0x9b, 0x42, 0xbd, 0xbe, 0x05, 0x00, 0x5d, 0xbe, 0x71, 0x86, 0x0a, 0x3e,
  0x8c, 0xe9, 0xd8, 0x3e, 0xc6, 0x4f, 0x99, 0x3c, 0x55, 0xd0, 0xdc, 0x3e,
  0xba, 0xe5, 0xb4, 0xbe, 0x98, 0xcb, 0xc4, 0xbc, 0xc4, 0xf3, 0x6b, 0xbe,
  0x77, 0x9a, 0x16, 0x3e, 0x43, 0x83, 0x39, 0x3d, 0xed, 0x46, 0x57, 0x3e,
  0xd4, 0xe3, 0x0a, 0x3f, 0xf1, 0x52, 0x82, 0x3e, 0xb8, 0x9d, 0x8e, 0xbe,
  0xd7, 0x9c, 0x09, 0xbd, 0x12, 0x65, 0xe6, 0xbd, 0x9d, 0xed, 0x9f, 0xbe,
  0x27, 0x25, 0x58, 0x3e, 0xdc, 0xd1, 0xca, 0xbe, 0xb5, 0x5c, 0x1e, 0xbf,
  0xcf, 0xae, 0xaf, 0x3e, 0xc9, 0x09, 0xc6, 0x3e, 0xb9, 0x29, 0x78, 0x3e,
  0x84, 0x0b, 0x67, 0xbe, 0xcb, 0x2f, 0x00, 0xbe, 0xb8, 0x4b, 0xa8, 0xbe,
  0x4f, 0x6a, 0xca, 0xbe, 0x7c, 0x12, 0x09, 0x3c, 0xff, 0x0a, 0xaa, 0xbe,
  0x9b, 0xce, 0x29, 0xbe, 0x5c, 0xfa, 0x47, 0x3e, 0x28, 0x3d, 0x11, 0x3e,
  0xcc, 0xa2, 0xb9, 0x3e, 0xe5, 0x53, 0xf4, 0x3e, 0xf8, 0x40, 0x80, 0xbe,
  0x8c, 0x6c, 0xdd, 0x3d, 0xb3, 0x52, 0x81, 0xbe, 0xcf, 0xd8, 0xa8, 0xbe,
  0xf5, 0x8d, 0x46, 0x3e, 0x83, 0x2f, 0x31, 0xbe, 0x0f, 0xf5, 0xe8, 0x3b,
  0xa4, 0x4c, 0xdf, 0x3e, 0x6c, 0x11, 0x19, 0xbe, 0xdd, 0x28, 0xec, 0xbd,
  0xe7, 0xf6, 0x05, 0xbe, 0x1a, 0x72, 0xfc, 0x3d, 0xbc, 0x6a, 0xa1, 0xbc,
  0xf0, 0x93, 0xb4, 0x3b, 0x28, 0x1a, 0x8f, 0x3e, 0x14, 0xd4, 0x96, 0x3e,
  0x28, 0xfe, 0x2b, 0xbd, 0xeb, 0x1e, 0x9a, 0xbe, 0x6a, 0x8d, 0x66, 0xbd,
  0xa2, 0xbf, 0xaf, 0xbe, 0xbf, 0xe0, 0xb5, 0x3e, 0xae, 0x30, 0x84, 0xbe,
  0x1c, 0xb8, 0x8c, 0xbe, 0x4b, 0xca, 0xcc, 0xbb, 0x66, 0x4c, 0x70, 0x3e,
  0xd7, 0x89, 0x50, 0x3e, 0xf4, 0xc8, 0xd5, 0x3e, 0x6f, 0x54, 0x29, 0xbd,
  0x76, 0x4f, 0x87, 0xbe, 0x97, 0xbc, 0xce, 0x3e, 0x28, 0x10, 0x33, 0xbe,
  0x03, 0x86, 0x2d, 0xbe, 0xf6, 0xcf, 0x9d, 0xbd, 0x4a, 0x11, 0xb9, 0x3e,
  0xf5, 0x38, 0xac, 0x3e, 0x80, 0xa0, 0x83, 0x3e, 0x4a, 0xb7, 0x52, 0xbe,
  0x90, 0xd3, 0x01, 0xbf, 0xdd, 0xa4, 0xc5, 0xbb, 0xc7, 0x9b, 0x06, 0xbe,
  0x9a, 0x41, 0xc4, 0xbc, 0xcd, 0x29, 0xe4, 0xbd, 0xc1, 0x2f, 0x00, 0x3f,
  0xc4, 0xec, 0x6b, 0x3e, 0xf9, 0x5e, 0x5c, 0x3c, 0x78, 0x28, 0x82, 0x3e,
  0x76, 0x79, 0x94, 0xbe, 0xd9, 0x73, 0x21, 0xbd, 0xa8, 0x88, 0x4e, 0xbe,
  0x4d, 0x6e, 0x86, 0x3e, 0x19, 0xa3, 0x9d, 0xbd, 0x82, 0x0b, 0x44, 0x3e,
  0x03, 0x85, 0x14, 0xbe, 0x0c, 0x06, 0x5d, 0x3e, 0xdd, 0x39, 0x0e, 0x3f,
  0xa3, 0x66, 0xa2, 0x3e, 0xde, 0x33, 0xb8, 0xbd, 0xc5, 0xdf, 0x94, 0x3e,
  0x5a, 0x76, 0x07, 0x3e, 0x4e, 0xf1, 0xce, 0xbe, 0xc7, 0x56, 0x48, 0xbe,
  0x17, 0x00, 0x04, 0x3f, 0x2c, 0x00, 0x8e, 0x3e, 0x9b, 0x6f, 0x00, 0x3f,
  0x33, 0x2d, 0x2f, 0xbd, 0xcd, 0x39, 0x4a, 0x3e, 0xf3, 0x78, 0x86, 0xbe,
  0xdf, 0x94, 0x67, 0x3e, 0x5e, 0x5d, 0xed, 0xbb, 0x25, 0xc6, 0xfd, 0xbe,
  0x53, 0x67, 0x60, 0xbc, 0x7c, 0x9d, 0xaa, 0x3e, 0xe9, 0xb8, 0x99, 0xbe,
  0xdc, 0xdf, 0x1e, 0xbe, 0xa1, 0xe6, 0xfb, 0x3e, 0x2b, 0x6b, 0x82, 0x3e,
  0xcf, 0x83, 0x5b, 0xbe, 0xb3, 0x83, 0xa6, 0x3e, 0x89, 0x0c, 0xeb, 0xbd,
  0x3d, 0x8d, 0xa1, 0xbe, 0x71, 0x95, 0x29, 0xbe, 0x10, 0x45, 0x9e, 0x3e,
  0x5a, 0xa0, 0x1a, 0xbe, 0x3e, 0x2e, 0x85, 0x3e, 0x71, 0xf6, 0xa9, 0x3e,
  0x00, 0xe9, 0x02, 0x3e, 0x67, 0x52, 0x87, 0xbe, 0x3d, 0x94, 0xa7, 0xbe,
  0xfb, 0xc3, 0x8e, 0x3e, 0x88, 0xc5, 0x87, 0x3e, 0x83, 0x94, 0x71, 0x3c,
  0x35, 0x61, 0x1d, 0xbe, 0x80, 0x26, 0x07, 0xbe, 0x80, 0xce, 0x8e, 0xbc,
  0x51, 0xa1, 0x77, 0x3e, 0x97, 0x9a, 0xfa, 0x3d, 0xa7, 0xec, 0x96, 0xbe,
  0xa9, 0xbc, 0x17, 0xbe, 0x84, 0xf2, 0x0a, 0x3c, 0xca, 0x59, 0xde, 0xbd,
  0x76, 0xc2, 0x4e, 0x3e, 0x3a, 0x8e, 0xc0, 0xbd, 0xf8, 0xa7, 0xb7, 0xbd,
  0x6b, 0xb9, 0x3c, 0xbe, 0x45, 0x5f, 0xd4, 0xbc, 0x3e, 0x9f, 0xf5, 0x3e,
  0x4c, 0xbf, 0x36, 0x3e, 0xd4, 0xde, 0x2b, 0x3e, 0x32, 0x4d, 0x94, 0xbd,
  0xf8, 0x92, 0xd7, 0x3e, 0x98, 0x04, 0xb7, 0x3e, 0xa4, 0xf2, 0xe4, 0xbe,
  0x18, 0xcf, 0xf0, 0x3e, 0xfb, 0x8b, 0x39, 0xbd, 0x5e, 0xd1, 0x75, 0xbe,
  0x39, 0x38, 0xf5, 0x3e, 0xec, 0x66, 0x9b, 0x3e, 0xe2, 0xee, 0x60, 0xbe,
  0xec, 0x16, 0xd9, 0xbe, 0xe1, 0xfc, 0x26, 0x3e, 0x97, 0x8e, 0xc7, 0x3e,
  0xe3, 0xf2, 0x97, 0x3d, 0xfd, 0xb1, 0x0a, 0x3e, 0x09, 0x5d, 0x9d, 0x3e,
  0xd0, 0xc9, 0x49, 0x3e, 0x1e, 0x64, 0xa3, 0x3e, 0x1a, 0x28, 0x6e, 0x3e,
  0x1d, 0x1d, 0xe3, 0x3d, 0xb3, 0x1c, 0x9c, 0x3e, 0x08, 0x56, 0x7b, 0x3e,
  0xf4, 0xa3, 0xc9, 0xbe, 0x62, 0x7a, 0xe5, 0xbd, 0x40, 0x53, 0xe0, 0xbd,
  0x43, 0x9e, 0x0b, 0x3e, 0x26, 0x28, 0xa2, 0x3e, 0xaa, 0x78, 0xf4, 0x3d,
  0x9f, 0xf7, 0x97, 0x3d, 0x8f, 0x23, 0x04, 0xbf, 0x4a, 0xa2, 0x0b, 0xbe,
  0xe4, 0x6f, 0xcf, 0x3e, 0x3a, 0xac, 0x67, 0xbe, 0x6e, 0xab, 0x99, 0x3e,
  0xc1, 0x73, 0xa0, 0xbd, 0x27, 0xc8, 0x7c, 0xbe, 0x1d, 0xa9, 0xc2, 0x3e,
  0x7e, 0xbf, 0x7a, 0xbe, 0xb1, 0x34, 0xe3, 0xbd, 0xec, 0xf6, 0x9a, 0xbd,
  0x3a, 0x01, 0xa4, 0x3e, 0x2b, 0x14, 0xa8, 0x3e, 0xe5, 0xb6, 0xf0, 0xbd,
  0x39, 0x4c, 0x91, 0x3c, 0x1d, 0xb3, 0xb2, 0x3e, 0xcc, 0x26, 0xba, 0xbe,
  0xfb, 0x15, 0xbf, 0xbd, 0x8f, 0x02, 0x29, 0x3e, 0x3b, 0xaf, 0x93, 0xbe,
  0x9a, 0x5c, 0x20, 0xbe, 0x2b, 0xac, 0x20, 0x3e, 0xf1, 0x75, 0x26, 0xbe,
  0xa5, 0xee, 0x9c, 0xbd, 0xfd, 0x24, 0xb3, 0x3e, 0xd7, 0x12, 0x95, 0x3d,
  0xc7, 0x60, 0xff, 0x3e, 0x86, 0xf2, 0xff, 0xff, 0x04, 0x00, 0x00, 0x00,
  0x30, 0x0c, 0x00, 0x00, 0x8c, 0xc1, 0xc7, 0x3d, 0x5c, 0x7d, 0xa5, 0x3b,
  0x88, 0x43, 0x0c, 0xbe, 0xa2, 0x13, 0xb7, 0x3e, 0x21, 0xf6, 0x20, 0x3d,
  0x5c, 0xe5, 0x43, 0x3e, 0xcc, 0x94, 0x11, 0x3e, 0x42, 0xce, 0x20, 0xbe,
  0x27, 0xaa, 0xe9, 0x3d, 0xcb, 0xc4, 0x5a, 0xbe, 0x1d, 0x1b, 0x95, 0x3c,
  0x5f, 0x19, 0xfd, 0x3d, 0x41, 0xc5, 0x8f, 0xbe, 0x8d, 0xac, 0x24, 0xbe,
  0x14, 0xfb, 0x25, 0x3d, 0xc1, 0x44, 0xb0, 0x3e, 0xa1, 0x34, 0x14, 0x3e,
  0x24, 0x3c, 0xc6, 0x3d, 0xff, 0xbb, 0xc9, 0xbd, 0x08, 0xc8, 0xab, 0xbd,
  0x1a, 0x39, 0xa5, 0x3e, 0xdf, 0xc2, 0xb5, 0xbc, 0xde, 0x86, 0xbd, 0x3e,
  0x5e, 0xc6, 0x15, 0x3e, 0x4e, 0xe4, 0xa9, 0xbe, 0x1f, 0xc9, 0x25, 0x3e,
  0xcd, 0x59, 0xca, 0xbd, 0xf3, 0xc0, 0x60, 0xbe, 0x6c, 0xf5, 0xa5, 0xbe,
  0xd9, 0xdb, 0x6e, 0xbe, 0xed, 0x8a, 0xc6, 0xbc, 0x54, 0x27, 0x53, 0x3d,
  0x08, 0x60, 0x5b, 0x3e, 0xba, 0xd1, 0xaf, 0xbe, 0x4c, 0xce, 0xcc, 0xbe,
  0x67, 0x13, 0x48, 0x3d, 0x17, 0x7b, 0x5d, 0xbe, 0x19, 0xbb, 0xe8, 0x3d,
  0x18, 0xab, 0xca, 0xbc, 0x28, 0x42, 0xb2, 0xbe, 0xb1, 0xd8, 0x1d, 0xbe,
  0x85, 0xb0, 0xb9, 0x3e, 0x37, 0x27, 0x00, 0x3d, 0xe0, 0x02, 0x4f, 0xbe,
  0x99, 0x68, 0x37, 0xbd, 0x63, 0xb7, 0x01, 0x3b, 0x48, 0x51, 0xac, 0xbc,
  0xcc, 0x17, 0xf9, 0x3c, 0xd0, 0x4c, 0x80, 0x3e, 0x51, 0x74, 0x4b, 0xbe,
  0xf9, 0x4d, 0xa2, 0x3d, 0x7e, 0xb8, 0x97, 0xbc, 0x7c, 0x8b, 0xfd, 0x3d,
  0x13, 0x64, 0x02, 0x3e, 0xd8, 0x65, 0x8f, 0xbe, 0x7a, 0x18, 0xb4, 0x3e,
  0xd7, 0xa5, 0x97, 0x3c, 0x0d, 0x4f, 0xd0, 0x3e, 0xeb, 0x11, 0xbe, 0xbd,
  0x64, 0xe6, 0x14, 0x3d, 0xbe, 0x6a, 0x78, 0x3d, 0x84, 0xf1, 0x96, 0x3e,
  0x98, 0xf7, 0xac, 0xbd, 0x46, 0x32, 0x2f, 0x3c, 0x16, 0xcb, 0xfd, 0x3c,
  0x6e, 0xf8, 0x24, 0x3d, 0xdc, 0xce, 0x9d, 0x3e, 0xf5, 0xd5, 0x99, 0xbd,
  0x13, 0xa0, 0x2d, 0xbe, 0x3e, 0xec, 0x29, 0xbe, 0xd6, 0xe2, 0x59, 0x3e,
  0xc2, 0x3b, 0xa0, 0x3e, 0x38, 0x15, 0xa7, 0x3e, 0x01, 0xd6, 0xa1, 0x3d,
  0xd3, 0x80, 0xd5, 0xbd, 0xdb, 0x8a, 0x36, 0xbe, 0x27, 0x91, 0x07, 0xbd,
  0x01, 0xe4, 0x8a, 0x3c, 0x1d, 0xbb, 0x45, 0x3e, 0x70, 0xac, 0x66, 0xbe,
  0x93, 0x10, 0x00, 0xbe, 0x57, 0x3c, 0xaa, 0xbe, 0x28, 0xa8, 0xa6, 0x3d,
  0x77, 0xb8, 0x86, 0xbe, 0xc6, 0x34, 0xca, 0x3d, 0xb7, 0x94, 0x38, 0x3e,
  0x8d, 0x8d, 0x81, 0x3e, 0x94, 0x1d, 0xa4, 0xbd, 0xf5, 0x61, 0x81, 0xbe,
  0xcd, 0x2e, 0xa0, 0x3c, 0x0c, 0xf2, 0x80, 0xbe, 0x06, 0x17, 0x82, 0x3e,
  0x10, 0x42, 0x1f, 0xbe, 0x37, 0xe6, 0xed, 0x3d, 0x59, 0xe9, 0x1b, 0x3e,
  0x0d, 0xa4, 0xc8, 0x3d, 0x14, 0x6a, 0x46, 0x3d, 0xd3, 0x1f, 0x43, 0x3e,
  0x10, 0xbb, 0xc9, 0x3e, 0x58, 0xa0, 0x25, 0xbe, 0x38, 0x22, 0x35, 0x3e,
  0xa5, 0x47, 0x8d, 0xbe, 0x81, 0x2e, 0x9c, 0xbd, 0x06, 0xa8, 0xeb, 0xbd,
  0x84, 0xfb, 0xc5, 0x3e, 0xd4, 0xa0, 0xdb, 0x3d, 0xda, 0x3e, 0x7e, 0xbe,
  0xff, 0x3c, 0x1d, 0xbe, 0x4e, 0xa3, 0x29, 0xbd, 0x55, 0x04, 0x9f, 0x3e,
  0x7a, 0xb6, 0x8c, 0x3e, 0x10, 0x61, 0xa8, 0xbd, 0x70, 0x5b, 0x28, 0xbd,
  0x61, 0x95, 0xbe, 0xbd, 0xbb, 0x75, 0x50, 0xbe, 0x8d, 0x74, 0x9a, 0x3c,
  0x4b, 0x24, 0x18, 0x3e, 0x31, 0xe1, 0x32, 0xbe, 0x13, 0x1e, 0x1e, 0x3e,
  0x03, 0x1b, 0x5f, 0xbe, 0xf6, 0x53, 0x7e, 0x3e, 0x46, 0x47, 0xbb, 0xbd,
  0x59, 0x8b, 0x59, 0x3e, 0xb5, 0x3b, 0x0a, 0x3d, 0x36, 0x41, 0xc7, 0x3e,
  0xcf, 0xbd, 0x80, 0x3e, 0x51, 0x77, 0x7a, 0xbe, 0x1a, 0x15, 0x8d, 0x3e,
  0xe7, 0x40, 0x8e, 0x3e, 0x49, 0xdc, 0x59, 0x3e, 0x02, 0x7f, 0x96, 0x3e,
  0x6c, 0x12, 0x3e, 0x3e, 0xc3, 0x14, 0x15, 0xbe, 0xad, 0x4f, 0x29, 0xbe,
  0x1d, 0x46, 0x51, 0xbe, 0xdb, 0x39, 0x44, 0x3e, 0x9d, 0x96, 0x92, 0x3e,
  0xfe, 0x97, 0xe4, 0xbd, 0x74, 0xde, 0x65, 0x3e, 0xbb, 0xb5, 0xfd, 0xbd,
  0xc2, 0xfa, 0xbc, 0xbc, 0x8f, 0x71, 0x96, 0x3e, 0xa4, 0x2e, 0x6c, 0x3e,
  0xcb, 0x05, 0x0f, 0xbe, 0x63, 0x63, 0x09, 0x3e, 0x0d, 0x68, 0x20, 0x3e,
  0x7c, 0xc8, 0x9a, 0x3e, 0x99, 0x9d, 0xfc, 0xbd, 0x7b, 0x9e, 0x6f, 0x3e,
  0xe5, 0x54, 0xb8, 0x3e, 0xfd, 0x05, 0x30, 0xbd, 0xb2, 0x9c, 0x95, 0x3e,
  0x5e, 0xd8, 0xca, 0x3d, 0x1b, 0xff, 0x8d, 0x3e, 0x4c, 0xaf, 0x8d, 0xbe,
  0x5d, 0x12, 0xe9, 0x3c, 0x93, 0xcf, 0x9c, 0x3e, 0xe5, 0x81, 0xe5, 0x3d,
  0x40, 0x69, 0xc5, 0x3b, 0xff, 0x81, 0x17, 0xbe, 0x59, 0x99, 0x46, 0xbe,
  0xfb, 0x5a, 0x49, 0xbe, 0x20, 0x49, 0x9d, 0x3e, 0x9d, 0x23, 0xb1, 0xbc,
  0x09, 0x1b, 0xde, 0xbd, 0xd6, 0xa4, 0x53, 0x3e, 0x62, 0xec, 0xa4, 0xbd,
  0xb7, 0x1c, 0xb9, 0x3d, 0x0f, 0x04, 0x31, 0xbe, 0x95, 0x49, 0x05, 0xbe,
  0x2d, 0x05, 0x23, 0xbe, 0xa4, 0x93, 0x34, 0x3e, 0x57, 0x2e, 0x22, 0x3e,
  0xcb, 0x7c, 0x86, 0x3e, 0xda, 0x7d, 0x00, 0xbd, 0xa7, 0x3f, 0xaf, 0xbd,
  0xf2, 0x15, 0x27, 0xbd, 0x30, 0x9d, 0x8b, 0x3e, 0xd4, 0x24, 0xaa, 0xbd,
  0x32, 0x10, 0xaf, 0xba, 0xfd, 0x52, 0x23, 0xbd, 0xdf, 0xaf, 0xbb, 0x3d,
  0xf1, 0xe2, 0x4f, 0x3e, 0x8d, 0x7c, 0x1a, 0x3e, 0xa3, 0x90, 0x98, 0xbe,
  0x38, 0x3c, 0x82, 0xbe, 0xaf, 0x68, 0x3a, 0x3e, 0xaf, 0xfe, 0x5e, 0xbe,
  0x9c, 0xd2, 0x86, 0x3e, 0x41, 0x17, 0x73, 0xbe, 0x5a, 0x22, 0x67, 0xbd,
  0x6c, 0x04, 0x39, 0xbe, 0x95, 0x31, 0x0a, 0xbe, 0x0f, 0x4b, 0x95, 0xbe,
  0x98, 0x4b, 0x84, 0x3c, 0x58, 0xb8, 0x0b, 0xbe, 0xfe, 0x7d, 0xdf, 0x3d,
  0xb6, 0x90, 0x14, 0x3e, 0x97, 0x2a, 0x71, 0xbb, 0x06, 0xb8, 0x4a, 0xbe,
  0x16, 0xee, 0xb4, 0xbe, 0xc6, 0x1f, 0x97, 0xbd, 0x49, 0xde, 0x45, 0x3e,
  0xda, 0x20, 0x61, 0xbe, 0x57, 0xb7, 0x43, 0x3c, 0xdc, 0xfb, 0xa7, 0xbe,
  0x4e, 0x2e, 0x34, 0xbe, 0x39, 0x9b, 0xba, 0xbe, 0x78, 0xf8, 0x4f, 0x3e,
  0xa5, 0xf7, 0x89, 0x3d, 0xf9, 0x4a, 0xc5, 0xbd, 0xa7, 0x1c, 0x3e, 0xbe,
  0x0d, 0x61, 0x16, 0xbd, 0x46, 0xf6, 0x70, 0xbb, 0xcc, 0xf7, 0xf3, 0x3d,
  0x82, 0x35, 0x2f, 0xbe, 0x16, 0x22, 0x53, 0xbe, 0x45, 0xc8, 0x9c, 0xbc,
  0x59, 0x59, 0x27, 0xbe, 0x59, 0x46, 0x0f, 0x3e, 0x39, 0x78, 0x00, 0xbe,
  0x9e, 0x2f, 0x33, 0x3e, 0x03, 0x02, 0xc8, 0x3b, 0x4e, 0x19, 0x53, 0xbe,
  0xf5, 0x81, 0xc6, 0x3e, 0x4f, 0x08, 0x43, 0xbe, 0x0f, 0xe8, 0x3a, 0xbd,
  0x47, 0x63, 0x90, 0x3e, 0x5e, 0x8a, 0x7e, 0xbe, 0xa7, 0xe0, 0xa5, 0xbd,
  0xc6, 0xa7, 0xa0, 0xbe, 0x93, 0x5c, 0x99, 0x3e, 0xc2, 0x3c, 0x41, 0xbe,
  0x60, 0x4f, 0x8a, 0x3d, 0x6b, 0x6e, 0x40, 0x3e, 0xed, 0x2c, 0x03, 0x3d,
  0xe2, 0x6f, 0x4d, 0xbe, 0x32, 0x52, 0xf3, 0xbd, 0x3e, 0x77, 0xe1, 0xbd,
  0xbd, 0xb9, 0x7b, 0xbe, 0xeb, 0x80, 0x42, 0xbd, 0x80, 0x28, 0x90, 0x3e,
  0xab, 0x0c, 0x79, 0xbd, 0x70, 0xd3, 0x5e, 0x3d, 0x61, 0x53, 0x42, 0xba,
  0x9d, 0x7b, 0xfd, 0x3b, 0x5d, 0xf6, 0x22, 0x3d, 0x06, 0x80, 0xfb, 0x3d,
  0xde, 0x34, 0x06, 0x3e, 0x6e, 0x60, 0x05, 0x3d, 0x86, 0xad, 0x4f, 0xbe,
  0xc0, 0x16, 0x2d, 0xbd, 0xb9, 0x2e, 0x88, 0x3e, 0x95, 0x67, 0x33, 0x3e,
  0x1b, 0xf2, 0x63, 0xbe, 0xa0, 0x42, 0x2d, 0xbd, 0xcd, 0x40, 0x35, 0xbe,
  0x61, 0x67, 0x76, 0x3e, 0x33, 0x08, 0xa9, 0xbc, 0x80, 0x46, 0x1e, 0x3d,
  0xe0, 0x51, 0x68, 0x3e, 0x50, 0x57, 0x84, 0xbe, 0xf6, 0x78, 0x91, 0x3e,
  0x11, 0x4f, 0xdb, 0x3c, 0x42, 0x90, 0x77, 0x3e, 0xf3, 0x39, 0x9e, 0xbe,
  0x48, 0x7c, 0x5d, 0xbd, 0xac, 0x6f, 0xc3, 0xbd, 0x9e, 0x69, 0x2e, 0xbe,
  0x1e, 0x12, 0x55, 0x3e, 0x56, 0xec, 0xc0, 0xbe, 0xc1, 0xce, 0xe0, 0x3d,
  0x74, 0x56, 0x6c, 0xbe, 0x58, 0x42, 0x2b, 0x3e, 0x60, 0x56, 0x17, 0xbe,
  0xc3, 0x62, 0x14, 0x3d, 0x8e, 0x99, 0x8c, 0x3e, 0x16, 0x0c, 0x5c, 0x3e,
  0xdd, 0x8e, 0xc8, 0x3d, 0x7f, 0xcb, 0x9e, 0x3d, 0x35, 0x4e, 0xcb, 0x3d,
  0x44, 0x5f, 0x16, 0xbe, 0x9c, 0xc5, 0x81, 0x3e, 0x3d, 0x4a, 0xdf, 0xbd,
  0xb6, 0x33, 0x83, 0x3e, 0x16, 0x3e, 0x27, 0xbe, 0xb6, 0xb9, 0x9c, 0x3c,
  0xdb, 0xb9, 0x94, 0xbe, 0xff, 0xb0, 0x46, 0xbe, 0xf1, 0x7a, 0xf8, 0xbd,
  0xb5, 0x67, 0x3e, 0xbe, 0x6d, 0x94, 0x84, 0xbe, 0xe6, 0x82, 0x7c, 0x3e,
  0x31, 0xe7, 0x39, 0x3e, 0x1c, 0xfa, 0xa5, 0xbe, 0xbb, 0xc0, 0x11, 0xbe,
  0x1d, 0x25, 0x45, 0xbd, 0x8b, 0x45, 0x97, 0xbd, 0xc2, 0x5a, 0xa0, 0x3e,
  0x4a, 0x57, 0x2c, 0xbe, 0xe2, 0x49, 0x2e, 0x3e, 0x97, 0x4c, 0x28, 0xbe,
  0x9a, 0x3a, 0x30, 0xbe, 0x05, 0xff, 0x92, 0xbd, 0x54, 0x74, 0x20, 0x3e,
  0x0d, 0xa7, 0x9b, 0xbd, 0xaa, 0x84, 0xe0, 0xbe, 0x54, 0x3f, 0x59, 0xbe,
  0xf1, 0xcc, 0xb0, 0xbe, 0x7f, 0x11, 0xda, 0xbd, 0x50, 0x21, 0xdf, 0x3c,
  0xe7, 0x08, 0x82, 0x3e, 0x36, 0xd6, 0xfa, 0x3d, 0x59, 0xa4, 0xaf, 0x3e,
  0xd1, 0x8e, 0x64, 0x3e, 0x54, 0xf6, 0xa9, 0xbd, 0xe0, 0x0b, 0xa7, 0xbe,
  0x07, 0x42, 0x24, 0x3e, 0x1a, 0xdd, 0x9a, 0xbd, 0x85, 0xb5, 0x71, 0xbe,
  0x55, 0x08, 0xa5, 0xbd, 0xa3, 0x13, 0x92, 0xbd, 0x5a, 0x13, 0x3b, 0xbc,
  0xa7, 0xea, 0x17, 0x3e, 0xab, 0xf8, 0xf8, 0x3d, 0x14, 0x60, 0x30, 0xbe,
  0x15, 0x52, 0xd5, 0xbc, 0x97, 0xab, 0xc1, 0xbd, 0xd5, 0x66, 0xe7, 0x3d,
  0xa4, 0xee, 0x2d, 0xbe, 0x5e, 0x0c, 0x8e, 0x3e, 0x41, 0xf6, 0xea, 0x3c,
  0x9e, 0x60, 0x77, 0x3e, 0xa0, 0x79, 0x22, 0x3e, 0x0c, 0xdb, 0x77, 0x3e,
  0x1b, 0x8c, 0x8b, 0x3d, 0xe6, 0x1b, 0x09, 0x3e, 0x07, 0x54, 0x25, 0x3e,
  0x8c, 0xf8, 0x35, 0x3e, 0x7f, 0x7b, 0xad, 0x3d, 0xda, 0x3a, 0xb6, 0x3e,
  0x67, 0xfd, 0xb7, 0xbe, 0xb7, 0xeb, 0xd1, 0x3d, 0x91, 0x28, 0xcd, 0xbe,
  0x70, 0x30, 0xff, 0xbd, 0x36, 0xf4, 0xa4, 0xbd, 0xea, 0xea, 0xa8, 0xbe,
  0x07, 0x98, 0x14, 0xbe, 0x6b, 0xe7, 0x9c, 0xbe, 0xea, 0x14, 0x6d, 0x3e,
  0xa7, 0x95, 0x3b, 0xbe, 0xec, 0x17, 0x63, 0xbe, 0xec, 0x6e, 0xe9, 0x3d,
  0xdf, 0x92, 0x90, 0xbe, 0x54, 0x7d, 0x62, 0x3c, 0x44, 0x4e, 0x7a, 0xbe,
  0x0a, 0x67, 0xf9, 0x3d, 0xf0, 0xa4, 0xb7, 0xbe, 0x2c, 0x85, 0x94, 0xbd,
  0x89, 0xd1, 0x67, 0xbe, 0x88, 0x35, 0xc1, 0xbe, 0x42, 0x15, 0xa7, 0xbe,
  0xc3, 0xbe, 0x8c, 0xbe, 0x2b, 0x58, 0xb8, 0xbe, 0x15, 0xbd, 0x6d, 0xbc,
  0x23, 0xea, 0x4f, 0xbe, 0x4c, 0xd3, 0x3e, 0x3e, 0x7b, 0x6c, 0xe5, 0x3c,
  0x94, 0xf4, 0xcb, 0x3d, 0xad, 0x14, 0x93, 0x3e, 0x72, 0x82, 0x0a, 0xbe,
  0x74, 0x97, 0x17, 0x3b, 0x85, 0xde, 0x8d, 0x3e, 0xe0, 0xba, 0xfc, 0x3d,
  0x1f, 0xab, 0xb3, 0x3e, 0x9d, 0xe2, 0xa8, 0x3e, 0x55, 0xef, 0x6e, 0x3e,
  0x57, 0x37, 0xac, 0x3d, 0xd7, 0xc3, 0xa1, 0x3d, 0xa4, 0x02, 0x84, 0xbd,
  0x3f, 0x1b, 0x5a, 0x3e, 0x19, 0xd2, 0x44, 0xbe, 0xda, 0x53, 0x33, 0xbd,
  0x18, 0x32, 0x27, 0xbe, 0x56, 0xd2, 0x1d, 0x3d, 0x77, 0xfb, 0x13, 0x3e,
  0xad, 0x11, 0xa2, 0x3d, 0xc4, 0xd6, 0x75, 0x3e, 0x59, 0x21, 0x55, 0x3e,
  0x43, 0x0d, 0x9a, 0xbd, 0x4f, 0xd4, 0x9a, 0x3e, 0x4f, 0x15, 0x66, 0x3e,
  0x3d, 0x03, 0x0f, 0x3d, 0x19, 0xc2, 0x63, 0xbe, 0x64, 0x3b, 0xbb, 0xbe,
  0xb6, 0xda, 0x24, 0xbd, 0x73, 0xfc, 0x82, 0x3e, 0x9e, 0x57, 0xd0, 0x3d,
  0xfa, 0x9e, 0x01, 0xbd, 0x6d, 0x3d, 0x1a, 0x3e, 0x9d, 0x38, 0x4f, 0xbe,
  0xf4, 0xa2, 0xa1, 0x3d, 0xda, 0x79, 0x40, 0x39, 0x01, 0x14, 0x92, 0xbe,
  0x33, 0xc5, 0x00, 0x3e, 0x3c, 0x21, 0x2b, 0xbe, 0xba, 0x64, 0xa4, 0x3d,
  0xd4, 0x4a, 0xb2, 0xbd, 0xd4, 0x8e, 0x07, 0x3e, 0xed, 0x82, 0xec, 0x3d,
  0xdf, 0x61, 0x7e, 0xbe, 0xb7, 0xf4, 0xb0, 0x3d, 0xf6, 0xb4, 0x54, 0xbe,
  0x5c, 0x85, 0x8f, 0x3e, 0xfb, 0x73, 0x69, 0x3e, 0xce, 0x22, 0xbc, 0xbd,
  0xcc, 0x5c, 0xf5, 0xbd, 0xa4, 0xbb, 0xb7, 0xbd, 0x79, 0x76, 0x9f, 0x3e,
  0xab, 0xc7, 0xe8, 0x3d, 0x97, 0x9e, 0xe7, 0xbe, 0x6d, 0x80, 0xbf, 0xbe,
  0x70, 0x81, 0xd7, 0xbe, 0x1c, 0xfb, 0x83, 0xbe, 0x4a, 0xf2, 0x0d, 0x3e,
  0xf2, 0x2f, 0x5a, 0x3e, 0x0b, 0x40, 0x02, 0xbd, 0xb3, 0xd9, 0x6c, 0xbe,
  0xbf, 0xe5, 0x60, 0xbe, 0x49, 0x31, 0xb9, 0xbd, 0xd3, 0xd7, 0x7c, 0x3e,
  0x36, 0xe5, 0x7f, 0x3e, 0xd9, 0x9c, 0x67, 0xbd, 0xff, 0x77, 0xc4, 0xbe,
  0x68, 0xc9, 0x96, 0xbe, 0x67, 0x89, 0x9a, 0x3e, 0x18, 0x39, 0x2a, 0xbe,
  0xf5, 0x24, 0x26, 0x3e, 0x94, 0xe1, 0x9b, 0xbd, 0xe7, 0xe3, 0x67, 0x3e,
  0x17, 0x66, 0x5b, 0x3e, 0x48, 0x3b, 0xa5, 0x3d, 0x73, 0x12, 0x6f, 0x3e,
  0x5e, 0x26, 0x5b, 0xbe, 0x0b, 0x8a, 0x2b, 0x3e, 0x64, 0xba, 0x77, 0xbd,
  0x78, 0x7a, 0x5c, 0xbe, 0x28, 0x8f, 0x9b, 0x3e, 0x22, 0x96, 0x11, 0x3d,
  0x8f, 0x32, 0xa4, 0xbd, 0xbc, 0x5a, 0x05, 0xbe, 0xbc, 0x05, 0xae, 0x3e,
  0x72, 0xf2, 0x68, 0xbc, 0x18, 0x64, 0x1e, 0x3d, 0x44, 0xc5, 0xac, 0x3d,
  0xd6, 0x78, 0x42, 0x3e, 0xaa, 0x2c, 0x89, 0x3e, 0x12, 0xaf, 0xe4, 0x3e,
  0x71, 0x6b, 0xe1, 0x3c, 0x24, 0x49, 0x59, 0xbe, 0x89, 0xc9, 0x70, 0xbe,
  0xb5, 0x9f, 0xe5, 0xbd, 0x7f, 0x8d, 0x91, 0xbe, 0x13, 0xfb, 0xa3, 0xbd,
  0x6c, 0xba, 0x22, 0xbe, 0x4e, 0x98, 0x7d, 0xbe, 0x18, 0xba, 0x91, 0x3c,
  0x00, 0xfa, 0xb0, 0x3d, 0xa0, 0x63, 0x10, 0xbe, 0xad, 0x15, 0x88, 0xbe,
  0x8e, 0x14, 0x8a, 0x3c, 0x38, 0xfe, 0xc2, 0xbd, 0x13, 0xa0, 0x77, 0x3e,
  0x96, 0x09, 0x61, 0xbe, 0xd7, 0xd0, 0x12, 0xbe, 0x40, 0xba, 0x88, 0xbe,
  0x4e, 0xcb, 0x5d, 0xbe, 0x90, 0x4d, 0x41, 0x3e, 0x12, 0x42, 0x11, 0xbd,
  0x41, 0x91, 0x83, 0xbe, 0x1e, 0x50, 0xc6, 0x3d, 0x42, 0xdd, 0xff, 0x3d,
  0x08, 0xd2, 0x02, 0xbe, 0xed, 0x16, 0x87, 0x3e, 0x08, 0x86, 0x0e, 0xbb,
  0x0f, 0xb1, 0x3e, 0xbd, 0xfe, 0x8d, 0x61, 0x3e, 0x6c, 0xf1, 0x06, 0xbe,
  0x8b, 0xc3, 0xcf, 0x3d, 0x35, 0x79, 0x06, 0x3e, 0xea, 0xee, 0x75, 0xbe,
  0x5c, 0xf8, 0x28, 0x3e, 0xc7, 0x4a, 0x24, 0x3e, 0xd5, 0x3a, 0x9c, 0xbd,
  0xa7, 0x7b, 0xae, 0xbc, 0xcf, 0xdb, 0x05, 0xbe, 0xe8, 0xe6, 0x99, 0x3e,
  0x4b, 0xd6, 0xf9, 0xbd, 0x86, 0xed, 0xa8, 0xbd, 0xe3, 0xfc, 0xda, 0x3d,
  0x9e, 0x45, 0xa6, 0xbe, 0xb3, 0x12, 0x93, 0x3e, 0x05, 0xe0, 0x7c, 0x3e,
  0x11, 0x85, 0x36, 0x3e, 0xaa, 0xd4, 0x63, 0x3e, 0x92, 0x10, 0x4e, 0xbe,
  0xac, 0x87, 0x80, 0xbe, 0xdd, 0x66, 0x24, 0x3e, 0x64, 0x97, 0xbf, 0xbd,
  0xce, 0xb5, 0xb4, 0xbe, 0x0f, 0xd2, 0xd3, 0x3d, 0x76, 0xea, 0x9b, 0x3e,
  0x5c, 0x90, 0xe1, 0x3e, 0x2d, 0x43, 0x1e, 0xbe, 0x30, 0x21, 0xd4, 0x3e,
  0xe7, 0xa3, 0x8f, 0x3d, 0xd8, 0x0e, 0xdb, 0x3d, 0xe3, 0xb9, 0x25, 0x3d,
  0x28, 0xb6, 0xfa, 0x3d, 0x98, 0x72, 0xaf, 0x3e, 0xc7, 0xb5, 0x1e, 0x3e,
  0xf2, 0x72, 0x0e, 0xbd, 0x44, 0xa8, 0x75, 0xbe, 0xde, 0x69, 0x89, 0xbe,
  0x73, 0x8d, 0xa9, 0x3b, 0x28, 0x7e, 0x28, 0xbe, 0x3c, 0xfb, 0x4a, 0xbd,
  0x34, 0x05, 0x3b, 0xbe, 0xb3, 0x8a, 0x6f, 0xbe, 0xd5, 0xa8, 0x8b, 0x3d,
  0x98, 0x8d, 0x81, 0x3c, 0x1f, 0x1a, 0xd6, 0x3c, 0x41, 0xd1, 0x49, 0xbe,
  0x5f, 0x7d, 0x29, 0xbe, 0x9c, 0x84, 0x64, 0x3e, 0x40, 0x7b, 0x23, 0xbe,
  0xee, 0xef, 0xeb, 0x3d, 0x9a, 0x44, 0x1a, 0x3d, 0x2d, 0xf4, 0x81, 0xbe,
  0xae, 0xc4, 0x2d, 0xbe, 0xba, 0xf5, 0x8e, 0xbe, 0x6a, 0x9c, 0x7f, 0x3d,
  0x2f, 0xf9, 0xeb, 0x3d, 0x84, 0x82, 0x55, 0x3d, 0x0a, 0x61, 0x10, 0xbe,
  0x3a, 0x40, 0x0e, 0x3e, 0x77, 0xb9, 0xbb, 0x3e, 0xf8, 0xdb, 0x1d, 0xbe,
  0xa3, 0x04, 0x87, 0xbe, 0x59, 0x57, 0x04, 0x3e, 0xcf, 0xf2, 0xd2, 0x3d,
  0x32, 0x6e, 0xf6, 0xbd, 0x29, 0x0e, 0x95, 0xbd, 0xc2, 0x6a, 0x3b, 0x3e,
  0xa0, 0x31, 0x5d, 0x3e, 0xc7, 0x07, 0x13, 0x3e, 0x02, 0xdc, 0xac, 0x3e,
  0xdf, 0x34, 0x88, 0xbe, 0xd1, 0xaa, 0x69, 0xbe, 0x74, 0xc8, 0xb1, 0x3e,
  0xa7, 0x2e, 0x8e, 0xbe, 0x3d, 0xf1, 0x91, 0xbd, 0x5d, 0x0e, 0xae, 0xbe,
  0x74, 0xff, 0x1a, 0x3e, 0xcd, 0xab, 0x35, 0x3e, 0xe5, 0x6b, 0x8e, 0xbe,
  0x48, 0xf7, 0x80, 0x3e, 0xb6, 0x84, 0x8f, 0x3e, 0xe3, 0x04, 0x19, 0xbe,
  0xe1, 0x04, 0xa6, 0x3e, 0x36, 0xa9, 0x3c, 0xbe, 0x29, 0x76, 0xca, 0xbd,
  0xdf, 0xf9, 0xb4, 0xbd, 0x37, 0x03, 0x96, 0xbe, 0x08, 0x10, 0x72, 0x3e,
  0xae, 0x72, 0xe4, 0xbd, 0x45, 0xc5, 0xb9, 0x3e, 0xbe, 0xa0, 0x13, 0xbe,
  0x2c, 0xf7, 0x13, 0xbe, 0x35, 0x02, 0x6c, 0x3e, 0x24, 0xb6, 0x71, 0x3d,
  0xe6, 0xfa, 0x29, 0xbe, 0x4f, 0x5a, 0xa5, 0xbe, 0xf9, 0x02, 0x7e, 0x3d,
  0x64, 0x6b, 0x59, 0x3e, 0xfa, 0xae, 0x9d, 0xb9, 0x95, 0x2a, 0xcf, 0x3d,
  0x4e, 0xb9, 0xb2, 0xbd, 0x5e, 0xd5, 0xdb, 0xbe, 0x02, 0x68, 0x8b, 0xbe,
  0xb9, 0x15, 0x07, 0xbd, 0xb0, 0x46, 0x16, 0xbe, 0x40, 0x3b, 0x6e, 0xbc,
  0xfa, 0xbb, 0xad, 0x3d, 0x4d, 0xa8, 0xc0, 0x3c, 0x89, 0xa7, 0x1b, 0xbd,
  0xed, 0xcf, 0xbb, 0x3d, 0x7d, 0xba, 0x38, 0xbe, 0x00, 0x0b, 0x73, 0x3e,
  0x47, 0x4b, 0x81, 0x3e, 0x0a, 0x07, 0x25, 0x3e, 0xcd, 0x84, 0x15, 0x3d,
  0x03, 0x88, 0x10, 0x3e, 0x19, 0x80, 0xe7, 0x3d, 0xb1, 0x0e, 0x45, 0x3e,
  0xfe, 0x09, 0x7f, 0xbe, 0xe7, 0x71, 0xc1, 0x3e, 0xf1, 0xb4, 0x96, 0xbe,
  0x94, 0x29, 0x0f, 0x3e, 0x54, 0x2c, 0x30, 0x3c, 0xb0, 0x80, 0xf1, 0x3a,
  0xcd, 0x27, 0xa1, 0xbd, 0x5e, 0x41, 0x85, 0xbe, 0x9e, 0x56, 0x54, 0xbe,
  0xcb, 0xfa, 0x19, 0xbd, 0xfe, 0x56, 0x8d, 0x3e, 0xc0, 0x85, 0x2d, 0x3d,
  0xd7, 0x17, 0xe9, 0x3c, 0x22, 0x6d, 0xa9, 0x3e, 0x36, 0xa0, 0x91, 0x3d,
  0xcb, 0x93, 0xbf, 0x3d, 0xaf, 0xb4, 0x97, 0x3d, 0xe0, 0x85, 0x7e, 0xbe,
  0x5e, 0x82, 0x08, 0x3d, 0xe5, 0x1b, 0x15, 0xbd, 0x2a, 0x02, 0x72, 0xbe,
  0x28, 0x8a, 0x0a, 0xbe, 0x73, 0x06, 0x4c, 0xbd, 0xfe, 0x42, 0x8e, 0x3e,
  0x3f, 0x2b, 0x93, 0xbd, 0x3f, 0xa8, 0xff, 0xbd, 0xfd, 0xbb, 0x84, 0xbe,
  0x09, 0xfc, 0xaa, 0x3d, 0x52, 0xc1, 0x88, 0xbe, 0x83, 0xcb, 0x89, 0xbe,
  0x23, 0xc0, 0xe1, 0xbd, 0xcc, 0x2f, 0x9f, 0x3d, 0xb6, 0x23, 0x04, 0x3e,
  0x6d, 0x46, 0xaf, 0xbd, 0x3e, 0xd9, 0xff, 0x3d, 0xe9, 0xd3, 0x8b, 0xbe,
  0x31, 0xef, 0x31, 0xbe, 0x76, 0x0c, 0xf7, 0x3d, 0x7c, 0x1d, 0xf9, 0xbd,
  0xe9, 0xed, 0x93, 0xbe, 0xe2, 0xd8, 0x41, 0xbe, 0xd5, 0xce, 0xa9, 0x3d,
  0x0c, 0x21, 0x37, 0xbe, 0x94, 0x8f, 0xf2, 0x3d, 0x2b, 0xd0, 0xec, 0xbd,
  0xc9, 0xdd, 0x90, 0xbd, 0x13, 0xfc, 0x8d, 0x3e, 0xe6, 0x09, 0x38, 0xbe,
  0x82, 0xbd, 0x52, 0x3e, 0x69, 0xa1, 0xf7, 0x3d, 0x34, 0x4f, 0xf1, 0x3c,
  0x0c, 0xe4, 0x73, 0x3e, 0x2f, 0x64, 0x5f, 0xbe, 0x74, 0x0c, 0xda, 0xbd,
  0xa3, 0xc5, 0x06, 0xbe, 0xf9, 0xa9, 0x0c, 0x3e, 0x40, 0xfd, 0x6d, 0xbe,
  0x14, 0xe8, 0xff, 0xbd, 0xbe, 0xb3, 0xd1, 0xbd, 0x8f, 0xb3, 0x98, 0x3e,
  0x97, 0x84, 0x82, 0x3e, 0x18, 0xe4, 0x71, 0x3e, 0x10, 0x70, 0x46, 0x3e,
  0x77, 0xa1, 0xbb, 0xbd, 0x08, 0x69, 0x03, 0xbe, 0xde, 0x76, 0x77, 0x3e,
  0xb7, 0x83, 0x67, 0x3d, 0x18, 0xb8, 0x76, 0xbd, 0x2f, 0x51, 0x0a, 0xbe,
  0x04, 0x50, 0x81, 0x3e, 0xdb, 0xd5, 0x2b, 0xbe, 0xe3, 0xb1, 0x3d, 0x3e,
  0x46, 0xbe, 0xd2, 0xbe, 0x65, 0xc9, 0xe5, 0xbd, 0xae, 0x0d, 0x39, 0xbe,
  0x3d, 0x99, 0x36, 0x3e, 0x91, 0x66, 0x9d, 0x3e, 0x1b, 0x9a, 0x2a, 0xbe,
  0x8a, 0x55, 0x19, 0x3e, 0xe1, 0xde, 0x51, 0xbe, 0x36, 0x15, 0x63, 0xbe,
  0xfd, 0x4b, 0x98, 0x3e, 0x34, 0x1a, 0x19, 0xbe, 0xb5, 0x9b, 0x92, 0xbe,
  0x3e, 0xed, 0x36, 0xbe, 0xef, 0x38, 0x3a, 0x3e, 0xdc, 0xd4, 0x94, 0x3d,
  0x51, 0x7e, 0x84, 0xbe, 0xd7, 0x05, 0x17, 0xbe, 0x92, 0xfe, 0xa9, 0xbe,
  0x57, 0x22, 0xb0, 0xbd, 0x10, 0x0c, 0x0a, 0xbd, 0xca, 0xe7, 0x29, 0xbd,
  0x07, 0xce, 0x9f, 0x3e, 0xf6, 0x3e, 0x90, 0x3e, 0x24, 0x0a, 0x1e, 0xbe,
  0x18, 0x07, 0x86, 0x3e, 0xbf, 0xac, 0x33, 0xbe, 0x33, 0xaf, 0x12, 0xbe,
  0x0b, 0xcc, 0x4f, 0x3e, 0xac, 0xe7, 0xa3, 0xbe, 0xdb, 0xe2, 0xa5, 0x3d,
  0x5d, 0x7d, 0x22, 0xbd, 0x75, 0x87, 0x87, 0xbe, 0xd9, 0x13, 0xb2, 0xbd,
  0xbd, 0xe4, 0x3b, 0xbd, 0x5e, 0xa7, 0x1e, 0xbe, 0xbe, 0xdf, 0xab, 0xbe,
  0x3e, 0xef, 0x29, 0xbe, 0x76, 0x1e, 0x9d, 0xbe, 0x9b, 0x94, 0x11, 0xbe,
  0xae, 0xde, 0x4a, 0xbe, 0x01, 0x94, 0x6b, 0xbe, 0x7c, 0x2a, 0xc4, 0x3d,
  0x5f, 0xc0, 0x90, 0xbe, 0xc6, 0x50, 0xcf, 0xbd, 0x97, 0x3b, 0x4f, 0x3e,
  0x7d, 0x89, 0x97, 0xbd, 0xb2, 0xc0, 0xb2, 0x3e, 0xfe, 0x04, 0xd6, 0xbd,
  0xe0, 0x0c, 0xa1, 0x3e, 0xf3, 0x66, 0x49, 0xbe, 0xad, 0x5f, 0xb5, 0xbe,
  0x1d, 0x4c, 0x89, 0x3d, 0xc9, 0xe4, 0x10, 0xbe, 0x88, 0x4b, 0xbf, 0xbe,
  0x9b, 0x7f, 0x17, 0xbe, 0x4c, 0x81, 0x7b, 0x3d, 0x86, 0x7a, 0xc1, 0xbd,
  0x74, 0x9e, 0x10, 0xbe, 0x3d, 0x1b, 0x7a, 0xbe, 0x62, 0x21, 0x6d, 0x3e,
  0xff, 0xbd, 0x65, 0x3e, 0xa3, 0x3c, 0xe2, 0x3d, 0xa5, 0x5f, 0x87, 0xbe,
  0x2f, 0x34, 0x92, 0xbe, 0x7b, 0xde, 0xd9, 0x3c, 0xf2, 0x44, 0x01, 0x3f,
  0x98, 0x0f, 0x42, 0xbe, 0xb6, 0x52, 0x91, 0x3c, 0xed, 0xfd, 0x54, 0xbe,
  0xe0, 0xa1, 0x88, 0x3d, 0xfe, 0x43, 0x71, 0x3e, 0x6f, 0xec, 0x51, 0x3d,
  0x0a, 0xe0, 0x76, 0x3e, 0xab, 0x20, 0xa0, 0x3e, 0x59, 0xdc, 0x65, 0xbe,
  0x99, 0x2b, 0x8c, 0x3e, 0xe4, 0x8a, 0x22, 0x3e, 0xe1, 0x69, 0x4d, 0xbd,
  0x20, 0xd2, 0xad, 0xbd, 0x52, 0xe5, 0xdc, 0xbd, 0xf8, 0x41, 0xfa, 0x3d,
  0xf1, 0xe0, 0xbb, 0xbe, 0xe3, 0x6e, 0x9a, 0xbd, 0x48, 0xf7, 0x37, 0x3e,
  0xe1, 0x19, 0xb7, 0xbd, 0x6e, 0x1d, 0xcb, 0xbe, 0x79, 0xee, 0xb7, 0x3e,
  0x5b, 0xe5, 0x29, 0xbe, 0xc5, 0x52, 0x7a, 0x3d, 0xa0, 0x5f, 0x18, 0xbc,
  0xe2, 0x0a, 0x4c, 0xbe, 0x5c, 0xb6, 0x1b, 0xbd, 0xfa, 0x94, 0x82, 0x3e,
  0xb9, 0xc0, 0xfa, 0x3d, 0xee, 0xb1, 0xed, 0xbe, 0x91, 0x47, 0x05, 0xbe,
  0x56, 0x69, 0x9c, 0x3d, 0x70, 0xfd, 0xdb, 0xbe, 0x12, 0x5b, 0x2e, 0xbe,
  0x7a, 0x48, 0xdb, 0x3c, 0x95, 0xa1, 0xa0, 0xbe, 0xbf, 0xe2, 0xd2, 0xbc,
  0x3c, 0xe5, 0x0f, 0xbd, 0xc2, 0xfe, 0xff, 0xff, 0x04, 0x00, 0x00, 0x00,
  0x0c, 0x00, 0x00, 0x00, 0x73, 0x75, 0x4a, 0xbc, 0xd9, 0x8e, 0x6a, 0xbd,
  0x89, 0xc6, 0xb4, 0x3d, 0xda, 0xfe, 0xff, 0xff, 0x04, 0x00, 0x00, 0x00,
  0x50, 0x00, 0x00, 0x00, 0x3e, 0x87, 0xc0, 0x3d, 0x28, 0xe0, 0xf2, 0x3d,
  0xe6, 0x75, 0x0b, 0x3d, 0xfb, 0xbd, 0x7f, 0x3d, 0x54, 0xea, 0x10, 0xbd,
  0x85, 0xd4, 0xe9, 0x3d, 0xad, 0x2e, 0xb5, 0xbd, 0x9b, 0x75, 0x12, 0x3d,
  0x71, 0x6a, 0x3a, 0x3c, 0x97, 0x47, 0x89, 0x3d, 0x67, 0xe6, 0xe1, 0x3d,
  0x9c, 0x8c, 0xe7, 0x3d, 0x9b, 0x32, 0x4c, 0xbd, 0xbc, 0x3d, 0x11, 0x3d,
  0xac, 0x15, 0xa7, 0xbd, 0x3a, 0x6d, 0x85, 0xbd, 0xc7, 0x08, 0x87, 0xbc,
  0xf0, 0xda, 0x1d, 0x3d, 0x54, 0x07, 0xae, 0x3d, 0x7a, 0x23, 0x36, 0x3e,
  0x36, 0xff, 0xff, 0xff, 0x04, 0x00, 0x00, 0x00, 0x28, 0x00, 0x00, 0x00,
  0x9d, 0x1b, 0x23, 0xbd, 0xa6, 0x5f, 0x1f, 0xbd, 0xd8, 0xd5, 0xf3, 0x3d,
  0x21, 0xd4, 0xd9, 0x3d, 0xea, 0xab, 0x32, 0x3e, 0x1d, 0xac, 0xa2, 0x3d,
  0x1f, 0x12, 0x0f, 0xbd, 0x66, 0x51, 0xdb, 0x3d, 0x44, 0x41, 0x98, 0x3d,
  0x78, 0xfc, 0x19, 0x3d, 0xc8, 0xfa, 0xff, 0xff, 0xcc, 0xfa, 0xff, 0xff,
  0x0f, 0x00, 0x00, 0x00, 0x4d, 0x4c, 0x49, 0x52, 0x20, 0x43, 0x6f, 0x6e,
  0x76, 0x65, 0x72, 0x74, 0x65, 0x64, 0x2e, 0x00, 0x01, 0x00, 0x00, 0x00,
  0x14, 0x00, 0x00, 0x00, 0x00, 0x00, 0x0e, 0x00, 0x18, 0x00, 0x14, 0x00,
  0x10, 0x00, 0x0c, 0x00, 0x08, 0x00, 0x04, 0x00, 0x0e, 0x00, 0x00, 0x00,
  0x14, 0x00, 0x00, 0x00, 0x1c, 0x00, 0x00, 0x00, 0x24, 0x01, 0x00, 0x00,
  0x28, 0x01, 0x00, 0x00, 0x2c, 0x01, 0x00, 0x00, 0x04, 0x00, 0x00, 0x00,
  0x6d, 0x61, 0x69, 0x6e, 0x00, 0x00, 0x00, 0x00, 0x04, 0x00, 0x00, 0x00,
  0xcc, 0x00, 0x00, 0x00, 0x84, 0x00, 0x00, 0x00, 0x50, 0x00, 0x00, 0x00,
  0x14, 0x00, 0x00, 0x00, 0x00, 0x00, 0x0e, 0x00, 0x1a, 0x00, 0x14, 0x00,
  0x10, 0x00, 0x0c, 0x00, 0x0b, 0x00, 0x04, 0x00, 0x0e, 0x00, 0x00, 0x00,
  0x1c, 0x00, 0x00, 0x00, 0x00, 0x00, 0x00, 0x09, 0x1c, 0x00, 0x00, 0x00,
  0x20, 0x00, 0x00, 0x00, 0x01, 0x00, 0x00, 0x00, 0x00, 0x00, 0x06, 0x00,
  0x08, 0x00, 0x04, 0x00, 0x06, 0x00, 0x00, 0x00, 0x00, 0x00, 0x80, 0x3f,
  0x01, 0x00, 0x00, 0x00, 0x0a, 0x00, 0x00, 0x00, 0x01, 0x00, 0x00, 0x00,
  0x09, 0x00, 0x00, 0x00, 0x9a, 0xff, 0xff, 0xff, 0x10, 0x00, 0x00, 0x00,
  0x00, 0x00, 0x00, 0x08, 0x0c, 0x00, 0x00, 0x00, 0x10, 0x00, 0x00, 0x00,
  0x90, 0xfb, 0xff, 0xff, 0x01, 0x00, 0x00, 0x00, 0x09, 0x00, 0x00, 0x00,
  0x03, 0x00, 0x00, 0x00, 0x08, 0x00, 0x00, 0x00, 0x06, 0x00, 0x00, 0x00,
  0x03, 0x00, 0x00, 0x00, 0xca, 0xff, 0xff, 0xff, 0x10, 0x00, 0x00, 0x00,
  0x00, 0x00, 0x00, 0x08, 0x10, 0x00, 0x00, 0x00, 0x14, 0x00, 0x00, 0x00,
  0xba, 0xff, 0xff, 0xff, 0x00, 0x00, 0x00, 0x01, 0x01, 0x00, 0x00, 0x00,
  0x08, 0x00, 0x00, 0x00, 0x03, 0x00, 0x00, 0x00, 0x07, 0x00, 0x00, 0x00,
  0x05, 0x00, 0x00, 0x00, 0x01, 0x00, 0x00, 0x00, 0x00, 0x00, 0x0e, 0x00,
  0x16, 0x00, 0x00, 0x00, 0x10, 0x00, 0x0c, 0x00, 0x0b, 0x00, 0x04, 0x00,
  0x0e, 0x00, 0x00, 0x00, 0x18, 0x00, 0x00, 0x00, 0x00, 0x00, 0x00, 0x08,
  0x18, 0x00, 0x00, 0x00, 0x1c, 0x00, 0x00, 0x00, 0x00, 0x00, 0x06, 0x00,
  0x08, 0x00, 0x07, 0x00, 0x06, 0x00, 0x00, 0x00, 0x00, 0x00, 0x00, 0x01,
  0x01, 0x00, 0x00, 0x00, 0x07, 0x00, 0x00, 0x00, 0x03, 0x00, 0x00, 0x00,
  0x00, 0x00, 0x00, 0x00, 0x04, 0x00, 0x00, 0x00, 0x02, 0x00, 0x00, 0x00,
  0x01, 0x00, 0x00, 0x00, 0x0a, 0x00, 0x00, 0x00, 0x01, 0x00, 0x00, 0x00,
  0x00, 0x00, 0x00, 0x00, 0x0b, 0x00, 0x00, 0x00, 0xa8, 0x03, 0x00, 0x00,
  0x38, 0x03, 0x00, 0x00, 0xe4, 0x02, 0x00, 0x00, 0x8c, 0x02, 0x00, 0x00,
  0x44, 0x02, 0x00, 0x00, 0xf8, 0x01, 0x00, 0x00, 0xac, 0x01, 0x00, 0x00,
  0x34, 0x01, 0x00, 0x00, 0xb4, 0x00, 0x00, 0x00, 0x50, 0x00, 0x00, 0x00,
  0x04, 0x00, 0x00, 0x00, 0x9a, 0xfc, 0xff, 0xff, 0x00, 0x00, 0x00, 0x01,
  0x10, 0x00, 0x00, 0x00, 0x10, 0x00, 0x00, 0x00, 0x0b, 0x00, 0x00, 0x00,
  0x28, 0x00, 0x00, 0x00, 0x84, 0xfc, 0xff, 0xff, 0x19, 0x00, 0x00, 0x00,
  0x53, 0x74, 0x61, 0x74, 0x65, 0x66, 0x75, 0x6c, 0x50, 0x61, 0x72, 0x74,
  0x69, 0x74, 0x69, 0x6f, 0x6e, 0x65, 0x64, 0x43, 0x61, 0x6c, 0x6c, 0x3a,
  0x30, 0x00, 0x00, 0x00, 0x02, 0x00, 0x00, 0x00, 0x01, 0x00, 0x00, 0x00,
  0x03, 0x00, 0x00, 0x00, 0xe2, 0xfc, 0xff, 0xff, 0x00, 0x00, 0x00, 0x01,
  0x10, 0x00, 0x00, 0x00, 0x10, 0x00, 0x00, 0x00, 0x0a, 0x00, 0x00, 0x00,
  0x40, 0x00, 0x00, 0x00, 0xcc, 0xfc, 0xff, 0xff, 0x32, 0x00, 0x00, 0x00,
  0x73, 0x65, 0x71, 0x75, 0x65, 0x6e, 0x74, 0x69, 0x61, 0x6c, 0x2f, 0x79,
  0x5f, 0x70, 0x72, 0x65, 0x64, 0x2f, 0x4d, 0x61, 0x74, 0x4d, 0x75, 0x6c,
  0x3b, 0x73, 0x65, 0x71, 0x75, 0x65, 0x6e, 0x74, 0x69, 0x61, 0x6c, 0x2f,
  0x79, 0x5f, 0x70, 0x72, 0x65, 0x64, 0x2f, 0x42, 0x69, 0x61, 0x73, 0x41,
  0x64, 0x64, 0x00, 0x00, 0x02, 0x00, 0x00, 0x00, 0x01, 0x00, 0x00, 0x00,
  0x03, 0x00, 0x00, 0x00, 0x42, 0xfd, 0xff, 0xff, 0x00, 0x00, 0x00, 0x01,
  0x10, 0x00, 0x00, 0x00, 0x10, 0x00, 0x00, 0x00, 0x09, 0x00, 0x00, 0x00,
  0x5c, 0x00, 0x00, 0x00, 0x2c, 0xfd, 0xff, 0xff, 0x4c, 0x00, 0x00, 0x00,
  0x73, 0x65, 0x71, 0x75, 0x65, 0x6e, 0x74, 0x69, 0x61, 0x6c, 0x2f, 0x64,
  0x65, 0x6e, 0x73, 0x65, 0x5f, 0x31, 0x2f, 0x4d, 0x61, 0x74, 0x4d, 0x75,
  0x6c, 0x3b, 0x73, 0x65, 0x71, 0x75, 0x65, 0x6e, 0x74, 0x69, 0x61, 0x6c,
  0x2f, 0x64, 0x65, 0x6e, 0x73, 0x65, 0x5f, 0x31, 0x2f, 0x52, 0x65, 0x6c,
  0x75, 0x3b, 0x73, 0x65, 0x71, 0x75, 0x65, 0x6e, 0x74, 0x69, 0x61, 0x6c,
  0x2f, 0x64, 0x65, 0x6e, 0x73, 0x65, 0x5f, 0x31, 0x2f, 0x42, 0x69, 0x61,
  0x73, 0x41, 0x64, 0x64, 0x00, 0x00, 0x00, 0x00, 0x02, 0x00, 0x00, 0x00,
  0x01, 0x00, 0x00, 0x00, 0x0a, 0x00, 0x00, 0x00, 0xbe, 0xfd, 0xff, 0xff,
  0x00, 0x00, 0x00, 0x01, 0x10, 0x00, 0x00, 0x00, 0x10, 0x00, 0x00, 0x00,
  0x08, 0x00, 0x00, 0x00, 0x54, 0x00, 0x00, 0x00, 0xa8, 0xfd, 0xff, 0xff,
  0x46, 0x00, 0x00, 0x00, 0x73, 0x65, 0x71, 0x75, 0x65, 0x6e, 0x74, 0x69,
  0x61, 0x6c, 0x2f, 0x64, 0x65, 0x6e, 0x73, 0x65, 0x2f, 0x4d, 0x61, 0x74,
  0x4d, 0x75, 0x6c, 0x3b, 0x73, 0x65, 0x71, 0x75, 0x65, 0x6e, 0x74, 0x69,
  0x61, 0x6c, 0x2f, 0x64, 0x65, 0x6e, 0x73, 0x65, 0x2f, 0x52, 0x65, 0x6c,
  0x75, 0x3b, 0x73, 0x65, 0x71, 0x75, 0x65, 0x6e, 0x74, 0x69, 0x61, 0x6c,
  0x2f, 0x64, 0x65, 0x6e, 0x73, 0x65, 0x2f, 0x42, 0x69, 0x61, 0x73, 0x41,
  0x64, 0x64, 0x00, 0x00, 0x02, 0x00, 0x00, 0x00, 0x01, 0x00, 0x00, 0x00,
  0x14, 0x00, 0x00, 0x00, 0x32, 0xfe, 0xff, 0xff, 0x00, 0x00, 0x00, 0x01,
  0x10, 0x00, 0x00, 0x00, 0x10, 0x00, 0x00, 0x00, 0x07, 0x00, 0x00, 0x00,
  0x28, 0x00, 0x00, 0x00, 0x1c, 0xfe, 0xff, 0xff, 0x18, 0x00, 0x00, 0x00,
  0x73, 0x65, 0x71, 0x75, 0x65, 0x6e, 0x74, 0x69, 0x61, 0x6c, 0x2f, 0x79,
  0x5f, 0x70, 0x72, 0x65, 0x64, 0x2f, 0x4d, 0x61, 0x74, 0x4d, 0x75, 0x6c,
  0x00, 0x00, 0x00, 0x00, 0x02, 0x00, 0x00, 0x00, 0x03, 0x00, 0x00, 0x00,
  0x0a, 0x00, 0x00, 0x00, 0x7a, 0xfe, 0xff, 0xff, 0x00, 0x00, 0x00, 0x01,
  0x10, 0x00, 0x00, 0x00, 0x10, 0x00, 0x00, 0x00, 0x06, 0x00, 0x00, 0x00,
  0x28, 0x00, 0x00, 0x00, 0x64, 0xfe, 0xff, 0xff, 0x19, 0x00, 0x00, 0x00,
  0x73, 0x65, 0x71, 0x75, 0x65, 0x6e, 0x74, 0x69, 0x61, 0x6c, 0x2f, 0x64,
  0x65, 0x6e, 0x73, 0x65, 0x5f, 0x31, 0x2f, 0x4d, 0x61, 0x74, 0x4d, 0x75,
  0x6c, 0x00, 0x00, 0x00, 0x02, 0x00, 0x00, 0x00, 0x0a, 0x00, 0x00, 0x00,
  0x14, 0x00, 0x00, 0x00, 0xc2, 0xfe, 0xff, 0xff, 0x00, 0x00, 0x00, 0x01,
  0x10, 0x00, 0x00, 0x00, 0x10, 0x00, 0x00, 0x00, 0x05, 0x00, 0x00, 0x00,
  0x24, 0x00, 0x00, 0x00, 0xac, 0xfe, 0xff, 0xff, 0x17, 0x00, 0x00, 0x00,
  0x73, 0x65, 0x71, 0x75, 0x65, 0x6e, 0x74, 0x69, 0x61, 0x6c, 0x2f, 0x64,
  0x65, 0x6e, 0x73, 0x65, 0x2f, 0x4d, 0x61, 0x74, 0x4d, 0x75, 0x6c, 0x00,
  0x02, 0x00, 0x00, 0x00, 0x14, 0x00, 0x00, 0x00, 0x27, 0x00, 0x00, 0x00,
  0x06, 0xff, 0xff, 0xff, 0x00, 0x00, 0x00, 0x01, 0x10, 0x00, 0x00, 0x00,
  0x10, 0x00, 0x00, 0x00, 0x04, 0x00, 0x00, 0x00, 0x38, 0x00, 0x00, 0x00,
  0xf0, 0xfe, 0xff, 0xff, 0x28, 0x00, 0x00, 0x00, 0x73, 0x65, 0x71, 0x75,
  0x65, 0x6e, 0x74, 0x69, 0x61, 0x6c, 0x2f, 0x79, 0x5f, 0x70, 0x72, 0x65,
  0x64, 0x2f, 0x42, 0x69, 0x61, 0x73, 0x41, 0x64, 0x64, 0x2f, 0x52, 0x65,
  0x61, 0x64, 0x56, 0x61, 0x72, 0x69, 0x61, 0x62, 0x6c, 0x65, 0x4f, 0x70,
  0x00, 0x00, 0x00, 0x00, 0x01, 0x00, 0x00, 0x00, 0x03, 0x00, 0x00, 0x00,
  0x5a, 0xff, 0xff, 0xff, 0x00, 0x00, 0x00, 0x01, 0x10, 0x00, 0x00, 0x00,
  0x10, 0x00, 0x00, 0x00, 0x03, 0x00, 0x00, 0x00, 0x34, 0x00, 0x00, 0x00,
  0x44, 0xff, 0xff, 0xff, 0x27, 0x00, 0x00, 0x00, 0x73, 0x65, 0x71, 0x75,
  0x65, 0x6e, 0x74, 0x69, 0x61, 0x6c, 0x2f, 0x64, 0x65, 0x6e, 0x73, 0x65,
  0x2f, 0x42, 0x69, 0x61, 0x73, 0x41, 0x64, 0x64, 0x2f, 0x52, 0x65, 0x61,
  0x64, 0x56, 0x61, 0x72, 0x69, 0x61, 0x62, 0x6c, 0x65, 0x4f, 0x70, 0x00,
  0x01, 0x00, 0x00, 0x00, 0x14, 0x00, 0x00, 0x00, 0xaa, 0xff, 0xff, 0xff,
  0x00, 0x00, 0x00, 0x01, 0x10, 0x00, 0x00, 0x00, 0x10, 0x00, 0x00, 0x00,
  0x02, 0x00, 0x00, 0x00, 0x38, 0x00, 0x00, 0x00, 0x94, 0xff, 0xff, 0xff,
  0x29, 0x00, 0x00, 0x00, 0x73, 0x65, 0x71, 0x75, 0x65, 0x6e, 0x74, 0x69,
  0x61, 0x6c, 0x2f, 0x64, 0x65, 0x6e, 0x73, 0x65, 0x5f, 0x31, 0x2f, 0x42,
  0x69, 0x61, 0x73, 0x41, 0x64, 0x64, 0x2f, 0x52, 0x65, 0x61, 0x64, 0x56,
  0x61, 0x72, 0x69, 0x61, 0x62, 0x6c, 0x65, 0x4f, 0x70, 0x00, 0x00, 0x00,
  0x01, 0x00, 0x00, 0x00, 0x0a, 0x00, 0x00, 0x00, 0x00, 0x00, 0x16, 0x00,
  0x18, 0x00, 0x14, 0x00, 0x00, 0x00, 0x10, 0x00, 0x0c, 0x00, 0x08, 0x00,
  0x00, 0x00, 0x00, 0x00, 0x00, 0x00, 0x07, 0x00, 0x16, 0x00, 0x00, 0x00,
  0x00, 0x00, 0x00, 0x01, 0x14, 0x00, 0x00, 0x00, 0x14, 0x00, 0x00, 0x00,
  0x01, 0x00, 0x00, 0x00, 0x24, 0x00, 0x00, 0x00, 0x04, 0x00, 0x04, 0x00,
  0x04, 0x00, 0x00, 0x00, 0x13, 0x00, 0x00, 0x00, 0x73, 0x65, 0x72, 0x76,
  0x69, 0x6e, 0x67, 0x5f, 0x64, 0x65, 0x66, 0x61, 0x75, 0x6c, 0x74, 0x5f,
  0x78, 0x3a, 0x30, 0x00, 0x02, 0x00, 0x00, 0x00, 0x01, 0x00, 0x00, 0x00,
  0x27, 0x00, 0x00, 0x00, 0x02, 0x00, 0x00, 0x00, 0x20, 0x00, 0x00, 0x00,
  0x04, 0x00, 0x00, 0x00, 0xf4, 0xff, 0xff, 0xff, 0x19, 0x00, 0x00, 0x00,
  0x00, 0x00, 0x00, 0x19, 0x0c, 0x00, 0x0c, 0x00, 0x0b, 0x00, 0x00, 0x00,
  0x00, 0x00, 0x04, 0x00, 0x0c, 0x00, 0x00, 0x00, 0x09, 0x00, 0x00, 0x00,
  0x00, 0x00, 0x00, 0x09
};
unsigned int tflite_learn_9_len = 6148;
#endif // _EI_CLASSIFIER_TFLITE_LEARN_9_H_
